00011010000000011111011011111001111000101110110000010000010000011111110011000001111111011110110111011011000110000000000010111001111000010000000111011000001010110010110100100000000100011111111000101100000110001110111000100010000010010011001000001011110111010001010100011110001100000001011100001001000111111111001011101100111011001011110011100111001000011111100000010100111010111111011000100110111001101101111001001010111000101111011011100101000000000010100111011010111010010001100000000001111011011101100011011000001000011101101100011001000011101101110100010111001100111111110011101101000000111111000011000110111111000000010011110100000101101110100100100010000111100000001000111100010001001111011011001110111100111110100100010001000000100000110111010100000000010000101011110000000000011110101100010101000110011100001100100010001111001011110000011100111101010000110011011011111101001101100011111111000111010001011000001001000100111111100111110111001000110101001011110011000001001011010011110011000110110001110000001101000111110010000100011000110110100001000100001101110110100011010000011101111111000010110100011010000011001111011100100000000011011101010111011011000001001101101100000010111000111110100011111101000010010001110100100010110111011110100100100110101101011111011111110101000001111111001011010010000000110001000100001001111101100000001011110101110101001110110011000010111100001110011011111101000101010011001111001100000100010000100011100011111010001110110100001011000001000001000011111001001000100001000111111011000100111111001100001110010011101110111000000100111000101011101000110011111000001111111000110010110111111110101111100000000011011111110100010010000110010010001000001110000010010011001101000110000011001110101111100000000010011110001000000010000001000001001100010100000110001111101111011101111100100001010011110010000000111101011011001010111111100000011011110000000001011111011101001011111101011100001111101011111000010011100111111100000001111110000100111001111001010010011111101110000101000001000011100011000000011110111000000101
00110101000110101100000111101000111000100001110100110000111100110000001011111011000000001111010011101110111011011101011100001011000111010000010011111000111100100001101011111111000000111110010111101011001011101100100100101001001000010000010000011000110111111100001111001110001110100000001000011000000100101110100100001010000000011100000000010101010101111101010011110111110110111110101111011100001010100001111101011110001000101110011100100000111110100001000111101101001101100000010100100011001010110000001100001111111101010001111100100101110111011111101111111011110100101110110100001010111110100000001000011010001101111111101111001100111111011111001011011110110010011110100011001001110110001111110000111000000010011111011111100110111000011110100000011101111110111110011100010100101110000000100011110100001000000001000011011001111001000001011111111101000010110010110111000011000111000001110011111110111110011110010100000101111001010000000111110111111100100001111011111011001010000000100011110111000001110000001100011011001001110001100111100011111001000010001000000001111100100010101100011110110000001111110000101101110111110001001000100101110100110001010111110101000111100000010011110010000100101110101011011110111011011110100111100000111001000000011100010100001000110001101100100001010000101100101111111100000101110001011100010011001011000000001111011011011000011111101100000000000101110000010011111110111011100001101011110100110111101111011111010011110101001111010011110010111001110100100011101011110110110001000011111110001011011100010111111010111110000010101100000100110110101111110011100111111111100000110011011000000001111101110100010000001110011100111011111100110011111111001100001111000010101110011100010011111000010000110100101011111110001110001111100011111110010001010100010110001010111110101000100010111111110000101011110101000011001110111100011010001000010000011011111100111010101111011000010010111111111101111011100101110111010000001000100000000010100000001100001100000110000100011111101000000000010000011100000110000000001011101011010000
11111010101111001100110100100010110010111101111100011111000000000000101111101000111010101111110011001100000100001111110011110111111010000010011111011101001111110011000100101010000100000001010000011110111000011110111100010001110001011111111000000110001000011110000111000101111101111011100011111011111001001101110011111001000110111110110000010011111010100101110100001101111111100010101000111000000000010000001111100010111111110001000000010101010000010011010011100111111111100000000011110011010011001110011100110010111101110011110011101101111111000010000111101010111110010010100111110101111110100000010111011110000010101111011011110111000011001101110011101010111110100000001100100101111110010010010100001100101110000001010011110010110111101111011100001000110101110001001100011101000111110001001000101101110111000011101100000001111101111110001000100011000011111111010111111110000101001101011111101101111100011101100000010010001000100000101011101100111111011101001000011001111100101110011011001110111110100010001000001011110111010010010111101110111100010000111000000101000110011111001011111000001100111110010111101100000001101101000011100001000110011110100000101010001000011111001111010101000101000000111111101001001000001111110011110100001000111111101000100010000110000011111111100010111000111111101000000110111110101110011000010101110100001101000000110101000001010010100001001111000100010001011100011110101111001111010100010100101111001111010011011011111111000010001111010011000010001111110011100111110100000000110000011001001000101111000111100001000011001110000100100100001000001110100010111001111110000000011000010110000001110010001011111010000110110011101101000001101110110001111000010110111101100100001100010000111101001111111100001110000011110001100011100101110010011101111011101100110110100000110100011100111011100010000111100000000101001100110100110000001100001111110101010100001011001101101000011010000100100001010100011100001011101111001111101101101101001110110001001010000001110000010100000000101101011110010001000001111110110010001011010001
00011001000001101111111111110011001111111011111011001001111111010000111011101010000111001110010111110111000010001111010111111101110110000001001011101010000111001100010100001100000000010000110100101100000001010001101100000010000000110000100011010001110111110001100011011010111111101100011100101100110111110010011100001010110111101101101011111001000010011111000111110100000011100011000011101110000000100001111000001101111110010001111000000100001100100010110111111110111101000010100011110011000101111110000011110110111101101101001011100111000111100001110100010011110110011111111000000010000010111110011111011010000001101011000111110111111001110000100111111010000011101101111000000010000100110000101011000011111011100001011000010011111110100000110111101100111110110000011000001011111111100000011100000111000110101100111100010101110010010001101100010000000010011111101011110011010000010100100000010010111011010010000000010001000000111111100100110110000010001111000100010110001000000001100100010110110111011011010000010011000101010010110011110101110011000000100011100111001011101111100000011010111101011111100111011101111111111110100011100111111011101100110111000110110110110010011000111011111001100001101100010111000101011110001100000010000101011110000111110101000000000000000100000011111110101110011000100011111101000001010110111111111010011100101011110110001000011111101000000000000100001111111111111101010010100010010000001101000110111010010111110100001000011011010111101111110101111110100111101101000000100001100100000011001111001101100011110100111011011111111100000111110101100001111011001101111010100010110011111011110111010000011111011100000100100011000011101110110111000001101111010000000111001111101011110100111011111110001000010111000101100010001011111110110011001110001111011111110010000001100011011111001100001110010100010000000101110001000111111011000010111111110011101000000010101011001000101010110110101111010100011000000000100001000111110010000010001110000111110110110110111101100111110101001010011111000000100101000010010001001011100110
00110000000011000011110111011000000011011111100100001001010011011110001111100100101101010001101011111110111100001100110011111101111110001111100011100111111110101110000111111001110110100000101111101111110111111111100011011101111011010010000111011011110111100010100011111111111100001111011111110101000111100000101000000101000110110000010011110110110000000000000100010110000101110001110111100110000011010010010011101001001100110010100111110100000000011100000100010110000000001101111000110001000000101110101001000100101101010001100000000011111000111111110111100101110110011101000011101110111011100001011111101011101101011110100011110001001010100011111000000100111100010000111111111010110110010000100011000010111000100011010100010100101100101100100011111100000111000001010011111001000000000001010111101000001000101110000000010000110111001100111011111101000101111111011000100111111101111100111100111111000000000001101000010011000100011111100111100000111100001110000011111111110111010011000111110111000001100010111011001111110111001101000011011111110100100011111011001101000100111101000000010101000001100000010011010101101111101110110000000110111100111111111100000101000001001111001100011100000110100000001000010100111010001101111100001110000010101111101000010100111010100000000000100001101100011111011110110101111110111110010100000011000101110000110100000011000011001100100100011100000101100000010100110000001000101111011100001001000110001111000100001010111110101110001111100010111110110000010000010001000001101111101011101001000010101110111100011010101101111111101111110000000100010010001000000000110111100001101011001000111111110000101100001100000010111110110000001111110111110010000000000011111011111110100100010111001011010000001111011001111010111110010011100101111100101101110011011111111010101110111111110100001000010001111111111110001010101110111000110101111101011011101100001001000110000000000011111111111100000000001011100100111000111111100011111100111000000000010011100101101101111111111100010001000010001111111101000101101111001111000011101010
00100111111111110001000000001101000011111110111011010000000101010001001011100001111101010000011000011001001011111110110100010101111111001111101100010010111101001101001110011010000010100101101111111001000010110000110100111100000001000000011111000011111101101111100100101000000001011110101100101100111110000000100011100110001000000000100011001100111000100000001000001110110111110001110111111000110101111101011111111001111011010010010111000000111010011110111100001100111001111111110111101101101101001110101011101000111110101100101001000011000010101111011100111111110101110000101011011010110011010000101100011001111100001110011011111100000110010000000011101111111111110000010000101111010100110000001000001001111010100001100000001010010011101111100000101101110101100001011100001010110111000010100011011100000111000000011011111001111110111111000100101110111010010011010011100111010000010100011100011010110010110000001111110010000110011111100000000010010000111111010010111010110111101101101011011110110100110000011011111011111111011111010000100000111101011101101111111110001100001101010011010110110000110001001100101110110111010010010100010010110001000001001100000011001001100000101011101000000001010011110111110010111101001110011100000100000011110010100111011010111010000000110100101011111110100001011011011001111111001111010011110000000010111111000010111110000001111110100011011011000100101110001111001001000000100001011100001011111101010000011111000111001001001101100011101100000001000001010000001001111100000001000100000101000000010000111100101100111100101110111011110110000110000001110100001001000101111111011000010110111101111111000000001110110111111111111010111101000001001101001011111110110101100001001011110011000010110100010011010011000011011101010000000011000101000010110100000010000010111110110011010110000001111111010111011101000110101111100100001100110100000000100011101100110110111101111100011011000001101110010100100101000011110000110011100011110011010001100100010111000010001111101111010100000110111110100011001000111100010000010011101111
11000011000101010001111000100101001001011111011011100110110001111111110111011101111011001111101100011100111100010000000100100010111110101111011011110001110110000000100000010010111010001011110011110101111100100010011000101101111000000001110011111011111111111111110111100110111100100000111100010101000000110010110100011111010001001110001100000000111010001100100011110110111100010001000111101011001010010000010000101001000000110000110100111011001001101110001000010011111110001101111111101001000101110010010011111010111000100000101000010001000011110000111111110100111111111111101100011010111011010010111100100011111011011100010010111101110111110011001111010100111100001111001000000001111001011110100100100101111111000000000000000010000100111110001111100011000110001111100111111110111100110000010100100000000001101100110000001111000001001101000111010111000011001111001100001100110111110000111000001101000100011101110111101101111001001111001100000001111011100000001111110101000000011110001000011100000100111110101011100001111101000001100100101011111011001110101000111110000011011111001011101001101101000000110011010000111010011111010100000010111110111101111000000110110111100000101000010101110111011010111100010010000000011111111000001011111000011111111100001110111011001111001111111010111101010000000111111110001110110000100011111001111000011111111100110000010000001110110100001101111101110001110000111111000110000001101000010001001000010000101000010101000010011100011100010001000111010001001000000000110101010000111100100000111000001110010111011010000010110000100011110001111001011101010011100101111101101101011100001010000111011101011111010101111101011110011111111011000000001100111000010000000011001110001111111011111111010000011000001101111100100000001111111000001011010000101111110110110100100001101001000100000011000000100011111010000011100010111000010000001011010000000000100001111010000001100000011010111001110100100111110100111101011111110100000011111110100011110000100011000001101100010000001100111000011110010000001001001011001011110111110101
00000000000010000000110111101110001011110001101111100011111100100001011100100101111011011110011011111011110001010001110111111111001010011110010111100110111001110000101000001111000111110010011011101011111111101111101111111100010000010010000000010110000010110010011011111000000100000011000000011100111101100010001111111001001101000000000000011111111110010000001000100001111111101111000011111010000011100000000100010011000001010000001100110001000010101111101111101010000011101110101011100010001001100001011011010111010001011111011111011101111001011110000100000011111000001111011101001101000100000001001000000100001111001111110100001000111110100100011111110001001011100010001100011100000001001111101111011001001011100001001111011001001011110001010000010101111010100010001111110101111110110001000000111001110111111101001111101010000111011101111000000011111110110010010100001011001001100010000111011111000001110000000011111011111100101111001111111100111001001101111011100010111111000000101100011010000100100001101111110010111101100001111000001011000110001110001111101101000101011111101011101110001101010010001000110101001000011101110011000111001011000011010000000101111110101111011011110000111000000000011011100100111000000001011100010010111101011111100011001111001011011111111100000011111101100011011111100001000111011110001011110100111001011110000011101111111110100010101111100100111100001101100111110110000111001110011100011000111101001111100011110010110000011101000011110101111011100101111111111110110001101110101000111111000000111111000100010101111111111101011100011110000000000000110011011100111000010010111011101000111011011111100100010000000111111111010100010110110110010001011111000001000000110001000011110000111110110010000000101010111100100000101000111111001001100001101000001100111000000010101011111110110101111010101111110101111001001110101000000011110111100001011111101111111101110001011100110011111001101110101000000000111110010000101100110001000101000000100011011101001101110010111111000101110101100101001100001001111011000001111011100100
11010100000010101111101100001101000111010001001011110000111111011111110011110111000110010000010111111110111001111111010111101011111100010001001111100010000011101111111111111001001011011110011011101110111001101101111100100100010010011111001011011101111001010011001011101110000101001111100011000000111011010000001111110110000001010100111100000100110111011111100000000001110010101101111111111110111101111101010011101111001000100000011011100011000010101110001011111000000011100011000100000110000001011110010100001011000100100001010100101001001001001111011011101101001000010000001011110100000001010000110001001011000010001110010111111101110011110001001100001001000111001110110011001000111100001101010011111011000001000001001111101101000001110001011011100011000101100001011100011101000001010000010111110101000011011111101100001110001000101111110100011111000010100001010100000110111110100000100100111010000111001111100000001101110100101100011000010010000010000001011011011001001000001111101000000011110101111111010011110101000001111111000111110001111000000000101000010010111011001100010000111010001000000000010000111001000011101111000000101111001000000000011011011111000110110001111100100111111110111111110000000001111001100010010000010111000101000000101111101010111010100010011111010100001110111100111011010111001110011110010011111111000000000010000011100110000101000001001000011001110110101111101001001100111100011110001011101101110111011100001000010001000111000000110100101100101010001111001100110110111111101101010101011010000101001111000000011101000001110011100011011100000011101111100011001110001110010010011011100010000111111011100011011001111111101111100011101111111100110011101111110000101111001111010011101010000001101110001011111000000001010000011000011010000001010000111000010110111000010000100011111110000000111100000100110010001110101111110111011001111000010001010000101111000100100001111100110010000100110010110100010100111110111111001011110100111011101100100011110101000010010011001011100110001000100000100111101010001001010001010111110001
